TRT-101401-EntropyCalibration2
images: 3c02140b
/model.0/conv/Conv_output_0: 3e95ff17
/model.0/act/Sigmoid_output_0: 3c010a14
/model.0/act/Mul_output_0: 3e93a19c
/model.1/conv/Conv_output_0: 3f2981f7
/model.1/act/Sigmoid_output_0: 3c010a14
/model.1/act/Mul_output_0: 3eafef4b
/model.2/cv1/conv/Conv_output_0: 3eca4d8d
/model.2/cv1/act/Sigmoid_output_0: 3c010a14
/model.2/cv1/act/Mul_output_0: 3e883266
/model.2/Split_output_0: 3e88e4d2
/model.2/Split_output_1: 3d953893
/model.2/m.0/cv1/conv/Conv_output_0: 3e67db1c
/model.2/m.0/cv1/act/Sigmoid_output_0: 3c010a14
/model.2/m.0/cv1/act/Mul_output_0: 3e866fa0
/model.2/m.0/cv2/conv/Conv_output_0: 3e7e944f
/model.2/m.0/cv2/act/Sigmoid_output_0: 3c010a14
/model.2/m.0/cv2/act/Mul_output_0: 3e13701c
/model.2/m.0/Add_output_0: 3e90cb81
/model.2/Concat_output_0: 3e885a5d
/model.2/cv2/conv/Conv_output_0: 3e0012a6
/model.2/cv2/act/Sigmoid_output_0: 3c00ed18
/model.2/cv2/act/Mul_output_0: 3d6ad78d
/model.3/conv/Conv_output_0: 3d644275
/model.3/act/Sigmoid_output_0: 3bff73a9
/model.3/act/Mul_output_0: 3d11caba
/model.4/cv1/conv/Conv_output_0: 3d9f745b
/model.4/cv1/act/Sigmoid_output_0: 3c008aa3
/model.4/cv1/act/Mul_output_0: 3d10fc6b
/model.4/Split_output_0: 3d10fc6b
/model.4/Split_output_1: 3ca5573b
/model.4/m.0/cv1/conv/Conv_output_0: 3d16e7a3
/model.4/m.0/cv1/act/Sigmoid_output_0: 3bfa20d3
/model.4/m.0/cv1/act/Mul_output_0: 3c5b7b36
/model.4/m.0/cv2/conv/Conv_output_0: 3d088dcb
/model.4/m.0/cv2/act/Sigmoid_output_0: 3c030b17
/model.4/m.0/cv2/act/Mul_output_0: 3cb13565
/model.4/m.0/Add_output_0: 3d0688ab
/model.4/m.1/cv1/conv/Conv_output_0: 3d039657
/model.4/m.1/cv1/act/Sigmoid_output_0: 3bdae903
/model.4/m.1/cv1/act/Mul_output_0: 3b105e86
/model.4/m.1/cv2/conv/Conv_output_0: 3d2464ff
/model.4/m.1/cv2/act/Sigmoid_output_0: 3c00abe4
/model.4/m.1/cv2/act/Mul_output_0: 3ce806ba
/model.4/m.1/Add_output_0: 3d46acf4
/model.4/Concat_output_0: 3d250877
/model.4/cv2/conv/Conv_output_0: 3d35fa0e
/model.4/cv2/act/Sigmoid_output_0: 3bfa3441
/model.4/cv2/act/Mul_output_0: 3c9a880e
/model.5/conv/Conv_output_0: 3d3c2d85
/model.5/act/Sigmoid_output_0: 3bf0c77f
/model.5/act/Mul_output_0: 3c733a97
/model.6/cv1/conv/Conv_output_0: 3d8ed8aa
/model.6/cv1/act/Sigmoid_output_0: 3bfd65de
/model.6/cv1/act/Mul_output_0: 3cd142d1
/model.6/Split_output_0: 3cd142d1
/model.6/Split_output_1: 3c905dcb
/model.6/m.0/cv1/conv/Conv_output_0: 3d19c6a7
/model.6/m.0/cv1/act/Sigmoid_output_0: 3bec9d8d
/model.6/m.0/cv1/act/Mul_output_0: 3c245fe2
/model.6/m.0/cv2/conv/Conv_output_0: 3ceb9464
/model.6/m.0/cv2/act/Sigmoid_output_0: 3be5aa46
/model.6/m.0/cv2/act/Mul_output_0: 3c5b4ebe
/model.6/m.0/Add_output_0: 3cc78b23
/model.6/m.1/cv1/conv/Conv_output_0: 3d1a9b3b
/model.6/m.1/cv1/act/Sigmoid_output_0: 3bde6585
/model.6/m.1/cv1/act/Mul_output_0: 3b104308
/model.6/m.1/cv2/conv/Conv_output_0: 3d1354e0
/model.6/m.1/cv2/act/Sigmoid_output_0: 3bf86f50
/model.6/m.1/cv2/act/Mul_output_0: 3cc0f6e4
/model.6/m.1/Add_output_0: 3d0ae5e4
/model.6/Concat_output_0: 3cd142d1
/model.6/cv2/conv/Conv_output_0: 3d1b9eeb
/model.6/cv2/act/Sigmoid_output_0: 3bf9972a
/model.6/cv2/act/Mul_output_0: 3c48deae
/model.7/conv/Conv_output_0: 3d5211c7
/model.7/act/Sigmoid_output_0: 3bf7766c
/model.7/act/Mul_output_0: 3c66f974
/model.8/cv1/conv/Conv_output_0: 3d6d21a4
/model.8/cv1/act/Sigmoid_output_0: 3c00d295
/model.8/cv1/act/Mul_output_0: 3cc0c9bb
/model.8/Split_output_0: 3d40e2e4
/model.8/Split_output_1: 3b104128
/model.8/m.0/cv1/conv/Conv_output_0: 3d19d64a
/model.8/m.0/cv1/act/Sigmoid_output_0: 3c09d1af
/model.8/m.0/cv1/act/Mul_output_0: 3c9a8d9b
/model.8/m.0/cv2/conv/Conv_output_0: 3d6875ff
/model.8/m.0/cv2/act/Sigmoid_output_0: 3c00781c
/model.8/m.0/cv2/act/Mul_output_0: 3cd1d23c
/model.8/m.0/Add_output_0: 3d077ad7
/model.8/Concat_output_0: 3cc0c9bb
/model.8/cv2/conv/Conv_output_0: 3d074563
/model.8/cv2/act/Sigmoid_output_0: 3bf82aca
/model.8/cv2/act/Mul_output_0: 3c877b63
/model.9/cv1/conv/Conv_output_0: 3d235c45
/model.9/cv1/act/Sigmoid_output_0: 3bfcd6db
/model.9/cv1/act/Mul_output_0: 3d10cc96
/model.9/m/MaxPool_output_0: 3d10cc96
/model.9/m_1/MaxPool_output_0: 3d10cc96
/model.9/m_2/MaxPool_output_0: 3d10cc96
/model.9/Concat_output_0: 3d188d6b
/model.9/cv2/conv/Conv_output_0: 3d3f2cfb
/model.9/cv2/act/Sigmoid_output_0: 3bf4c45b
/model.9/cv2/act/Mul_output_0: 3c9a1771
/model.10/Resize_output_0: 3c9a1771
/model.11/Concat_output_0: 3c806529
/model.12/cv1/conv/Conv_output_0: 3d546fd8
/model.12/cv1/act/Sigmoid_output_0: 3bf0fcad
/model.12/cv1/act/Mul_output_0: 3c9982e7
/model.12/Split_output_0: 3c5b9266
/model.12/Split_output_1: 3c9982e7
/model.12/m.0/cv1/conv/Conv_output_0: 3d11a16c
/model.12/m.0/cv1/act/Sigmoid_output_0: 3beca19a
/model.12/m.0/cv1/act/Mul_output_0: 3c108339
/model.12/m.0/cv2/conv/Conv_output_0: 3cb057d7
/model.12/m.0/cv2/act/Sigmoid_output_0: 3beb0a37
/model.12/m.0/cv2/act/Mul_output_0: 3c73df6c
/model.12/Concat_output_0: 3c9a6ba0
/model.12/cv2/conv/Conv_output_0: 3d00028d
/model.12/cv2/act/Sigmoid_output_0: 3be6dd02
/model.12/cv2/act/Mul_output_0: 3c8081a7
/model.13/Resize_output_0: 3c8081a7
/model.14/Concat_output_0: 3c80d432
/model.15/cv1/conv/Conv_output_0: 3d26686e
/model.15/cv1/act/Sigmoid_output_0: 3bf0680c
/model.15/cv1/act/Mul_output_0: 3c7f9fc3
/model.15/Split_output_0: 3c51f371
/model.15/Split_output_1: 3c7f9fc3
/model.15/m.0/cv1/conv/Conv_output_0: 3d0fa6c6
/model.15/m.0/cv1/act/Sigmoid_output_0: 3bedb201
/model.15/m.0/cv1/act/Mul_output_0: 3c6639bc
/model.15/m.0/cv2/conv/Conv_output_0: 3d013aa2
/model.15/m.0/cv2/act/Sigmoid_output_0: 3bfba8c9
/model.15/m.0/cv2/act/Mul_output_0: 3ce7a254
/model.15/Concat_output_0: 3cd38359
/model.15/cv2/conv/Conv_output_0: 3d1c5081
/model.15/cv2/act/Sigmoid_output_0: 3bf84e8e
/model.15/cv2/act/Mul_output_0: 3c9a2a41
/model.16/conv/Conv_output_0: 3d01b329
/model.16/act/Sigmoid_output_0: 3c05b945
/model.16/act/Mul_output_0: 3c5b7521
/model.17/Concat_output_0: 3c5b7521
/model.18/cv1/conv/Conv_output_0: 3d22efad
/model.18/cv1/act/Sigmoid_output_0: 3bf84511
/model.18/cv1/act/Mul_output_0: 3ca466ff
/model.18/Split_output_0: 3c679e70
/model.18/Split_output_1: 3ca466ff
/model.18/m.0/cv1/conv/Conv_output_0: 3d0881d5
/model.18/m.0/cv1/act/Sigmoid_output_0: 3bea5097
/model.18/m.0/cv1/act/Mul_output_0: 3b10d149
/model.18/m.0/cv2/conv/Conv_output_0: 3d233db3
/model.18/m.0/cv2/act/Sigmoid_output_0: 3bfd432d
/model.18/m.0/cv2/act/Mul_output_0: 3ce8d4b0
/model.18/Concat_output_0: 3cc24fbe
/model.18/cv2/conv/Conv_output_0: 3d5aa14a
/model.18/cv2/act/Sigmoid_output_0: 3bf11121
/model.18/cv2/act/Mul_output_0: 3c806863
/model.19/conv/Conv_output_0: 3d17444d
/model.19/act/Sigmoid_output_0: 3bf1b75a
/model.19/act/Mul_output_0: 3c6765e1
/model.20/Concat_output_0: 3c806529
/model.21/cv1/conv/Conv_output_0: 3d37e73e
/model.21/cv1/act/Sigmoid_output_0: 3bf75684
/model.21/cv1/act/Mul_output_0: 3c8fd030
/model.21/Split_output_0: 3c5ba88e
/model.21/Split_output_1: 3c8fd030
/model.21/m.0/cv1/conv/Conv_output_0: 3d4cf1aa
/model.21/m.0/cv1/act/Sigmoid_output_0: 3bf748c4
/model.21/m.0/cv1/act/Mul_output_0: 3c88677a
/model.21/m.0/cv2/conv/Conv_output_0: 3d6e81e7
/model.21/m.0/cv2/act/Sigmoid_output_0: 3bff3c0a
/model.21/m.0/cv2/act/Mul_output_0: 3d019579
/model.21/Concat_output_0: 3cd3eabe
/model.21/cv2/conv/Conv_output_0: 3de99afb
/model.21/cv2/act/Sigmoid_output_0: 3bfc6339
/model.21/cv2/act/Mul_output_0: 3c5cffeb
/model.22/cv2.0/cv2.0.0/conv/Conv_output_0: 3d4cdef9
/model.22/cv2.0/cv2.0.0/act/Sigmoid_output_0: 3c016ca7
/model.22/cv2.0/cv2.0.0/act/Mul_output_0: 3c51a5e4
/model.22/cv2.0/cv2.0.1/conv/Conv_output_0: 3e0069f1
/model.22/cv2.0/cv2.0.1/act/Sigmoid_output_0: 3c010a14
/model.22/cv2.0/cv2.0.1/act/Mul_output_0: 3dbfcb6c
/model.22/cv2.0/cv2.0.2/Conv_output_0: 3dbb1127
/model.22/Reshape_output_0: 3dbb1127
/model.22/cv2.1/cv2.1.0/conv/Conv_output_0: 3d85e358
/model.22/cv2.1/cv2.1.0/act/Sigmoid_output_0: 3bfe905c
/model.22/cv2.1/cv2.1.0/act/Mul_output_0: 3cd2389a
/model.22/cv2.1/cv2.1.1/conv/Conv_output_0: 3e1b57b0
/model.22/cv2.1/cv2.1.1/act/Sigmoid_output_0: 3c010a14
/model.22/cv2.1/cv2.1.1/act/Mul_output_0: 3dc8f8c6
/model.22/cv2.1/cv2.1.2/Conv_output_0: 3d91a289
/model.22/Reshape_1_output_0: 3d91a289
/model.22/cv2.2/cv2.2.0/conv/Conv_output_0: 3d92b6b0
/model.22/cv2.2/cv2.2.0/act/Sigmoid_output_0: 3c020cf6
/model.22/cv2.2/cv2.2.0/act/Mul_output_0: 3d3eb3ac
/model.22/cv2.2/cv2.2.1/conv/Conv_output_0: 3e9c9409
/model.22/cv2.2/cv2.2.1/act/Sigmoid_output_0: 3c010a14
/model.22/cv2.2/cv2.2.1/act/Mul_output_0: 3e91d733
/model.22/cv2.2/cv2.2.2/Conv_output_0: 3d944343
/model.22/Reshape_2_output_0: 3d944343
/model.22/Concat_output_0: 3db7a459
/model.22/cv3.0/cv3.0.0/conv/Conv_output_0: 3d28e3ce
/model.22/cv3.0/cv3.0.0/act/Sigmoid_output_0: 3be9e55b
/model.22/cv3.0/cv3.0.0/act/Mul_output_0: 3c101ef8
/model.22/cv3.0/cv3.0.1/conv/Conv_output_0: 3de459c3
/model.22/cv3.0/cv3.0.1/act/Sigmoid_output_0: 3c021421
/model.22/cv3.0/cv3.0.1/act/Mul_output_0: 3dc645b6
/model.22/cv3.0/cv3.0.2/Conv_output_0: 3e19c477
/model.22/Reshape_3_output_0: 3e19c477
/model.22/cv3.1/cv3.1.0/conv/Conv_output_0: 3d40ae2a
/model.22/cv3.1/cv3.1.0/act/Sigmoid_output_0: 3bed68ef
/model.22/cv3.1/cv3.1.0/act/Mul_output_0: 3c9079aa
/model.22/cv3.1/cv3.1.1/conv/Conv_output_0: 3dd98d95
/model.22/cv3.1/cv3.1.1/act/Sigmoid_output_0: 3c02f5dc
/model.22/cv3.1/cv3.1.1/act/Mul_output_0: 3dc2ea2b
/model.22/cv3.1/cv3.1.2/Conv_output_0: 3e128797
/model.22/Reshape_4_output_0: 3e128797
/model.22/cv3.2/cv3.2.0/conv/Conv_output_0: 3d735a55
/model.22/cv3.2/cv3.2.0/act/Sigmoid_output_0: 3bff8a9a
/model.22/cv3.2/cv3.2.0/act/Mul_output_0: 3d111d55
/model.22/cv3.2/cv3.2.1/conv/Conv_output_0: 3e91a32e
/model.22/cv3.2/cv3.2.1/act/Sigmoid_output_0: 3c010a14
/model.22/cv3.2/cv3.2.1/act/Mul_output_0: 3dc83e08
/model.22/cv3.2/cv3.2.2/Conv_output_0: 3e44eb87
/model.22/Reshape_5_output_0: 3e44eb87
/model.22/Concat_1_output_0: 3e278a8f
/model.22/dfl/Reshape_output_0: 3db7a459
/model.22/dfl/Transpose_output_0: 3db7a459
/model.22/dfl/Softmax_output: 3b83dfd0
/model.22/dfl/Softmax_output_0: 3b83dfd0
/model.22/dfl/conv/Conv_output_0: 3dba65a0
/model.22/dfl/Reshape_1_output_0: 3dba65a0
/model.22/Sub_1_output_0: 3e34577e
/model.22/Constant_15_output_0_output: 3e810a14
/model.22/Add_1_output_0: 3f21fd55
output0: 40a0a979
ONNXTRT_Broadcast_output: 3c810a14
/model.22/Constant_14_output_0_output: 3c810a14
/model.22/Sigmoid_output_0: 38d42feb
/model.22/Div_1_output_0: 3f22532b
/model.22/Mul_2_output_0: 40a0a979
/model.22/Slice_output_0: 3dc5a3ab
/model.22/Constant_13_output_0_output: 3f204a85
/model.22/Sub_output_0: 3f1f7708
ONNXTRT_Broadcast_95_output: 3e810a14
/model.22/Slice_1_output_0: 3dc6ed89
/model.22/Add_2_output_0: 3fa2532b
/model.22/Constant_12_output_0_output: 3f204a85
/model.22/Concat_2_output_0: 3f21126f
